n </w>
y </w>
a r
a </w>
a l
i </w>
s h
e </w>
e r
n d
a s
ń </w>
a ı
a t
y q
m e
a n</w>
a n
a q
k e
s t
y l
d e
y n
yq </w>
y ń</w>
d y</w>
o l
p </w>
a ǵ
t i
l e
a ý
a m
k </w>
o r
a z
i r
t e
ı ı
l i
y r
i n</w>
d i</w>
r e
i n
ar </w>
ý </w>
y s
t </w>
me n</w>
ǵ a</w>
i z
y m
g e
y z
o n
u r
s e
al yq</w>
ǵ an</w>
u l
i ń</w>
ı n
d a</w>
k ó
b e
t ý
q az
j e
a dy</w>
aı </w>
t ar
n e</w>
ı </w>
s </w>
j á
b ol
a ń
já ne</w>
y p</w>
i m
a b
g i</w>
q ar
aǵ y</w>
j yl
y ǵ
o m
qaz aq
t y</w>
b as
b ir
ı k
yn a</w>
a p
o s
yn yń</w>
ó z
d yń</w>
a d
m á
e k
s ıı
ú sh
ar l
qazaq st
t t
ge n</w>
n e
b ul
o ı
bul </w>
i l
t ú
de n
e l
j ú
as y</w>
sh a</w>
i k</w>
aq </w>
aq t
s al
o t
d iń</w>
k ú
al ar
me m
o q
aı t
mem leke
z ı
q al
v </w>
ol </w>
q ur
in iń</w>
q a</w>
p re
al </w>
i s
g iz
á r
b aǵ
yz </w>
e s
ı t
ı in</w>
al d
m </w>
ke z
i k
yq t
d an</w>
p e
t r
tý r
al y</w>
zı den
pre zıden
t ó
ys y</w>
ar y</w>
ý r
f or
an yń</w>
qazaqst an</w>
yr </w>
á s
aı l
úsh in</w>
q yz
o ǵ
or t
q u
t ı
an y</w>
yn sha</w>
iz </w>
t ur
aq sh
ynd aǵy</w>
de p</w>
kó r
q at
te ń
b ı
m ú
j u
á le
at yn</w>
j ań
q ol
n yń</w>
b u
sh yl
k om
aqsh </w>
ıı a</w>
de ıin</w>
j as
al ǵan</w>
sh i</w>
j ar
ju m
pe n</w>
t k
y t
týr aly</w>
d ik</w>
l ı
ge n
an a</w>
q or
h ab
as ynda</w>
h al
b oı
m ın
e n
o </w>
bir </w>
m u
al ǵ
o b
d ar
ul tt
ý ǵa</w>
d am
p ar
ý b
mú m
múm k
ultt yq</w>
a k
hab arl
aı dy</w>
i p
ke ń
j at
q yl
p aı
o g
s ı
a e
yn an</w>
qyz me
ı l
sh yǵ
s aı
q an</w>
as ynyń</w>
c h
tú r
jań a</w>
d yq</w>
de di</w>
o v</w>
d an
t oq
s ond
ık alyq</w>
mın ı
boı ynsha</w>
ast yr
m ań
mını str
j az
k az
b ar</w>
b ar
s at
sh ar
on om
n ı
t sıı
s aý
for m</w>
al m
kaz in
kazin form</w>
u s
e ń
f r
d </w>
ǵ y</w>
kór se
óz </w>
a v
sh e</w>
memleke ttik</w>
ek onom
d aı
ý ge</w>
j aǵ
ar n
b ó
os y</w>
q y</w>
jyl y</w>
yl ǵan</w>
yz dy</w>
q aý
sh ysy</w>
jú r
q os
t al
teń ge</w>
e ýr
á ý
an yn</w>
d ol
ý y</w>
s p
tk iz
dol l
yqar alyq</w>
hal yqaralyq</w>
is i</w>
o v
an nyń</w>
qur yl
t ap
memleke t</w>
k on
ne giz
t yń</w>
g in</w>
q ab
jú ı
as yn</w>
s iz
ar dyń</w>
al an
d ı
prezıden t</w>
aıt a</w>
aı m
as yndaǵy</w>
der </w>
a h
tó r
s o
in shi</w>
s yr
j ol
ot yr
b aıl
mań yzdy</w>
tr am
ále ý
ae v</w>
z e
j oǵ
ler </w>
ıı alyq</w>
z ań
az am
or n
bas shysy</w>
ir </w>
b aı
n an</w>
y p
resp ýb
tú s
q oǵ
ý aq
q a
sh e
o p
bol dy</w>
ast ana</w>
us yn
a gen
l </w>
k ás
yl dy</w>
de gi</w>
baıl an
ı m
bu ǵan</w>
ı di</w>
y ń
b ú
qa je
ále m
u ı
qab yl
aq par
m l
ó n
qyl y</w>
ár i</w>
ar qyly</w>
s an
ekonom ıkalyq</w>
prezıden ti</w>
al ady</w>
má lim
t an
tar ı
qat ysty</w>
múmk in</w>
respýb lık
e mes</w>
t ol
ó tti</w>
t sı
ý l
ó k
s á
q oı
t or
s ar
b al
as yna</w>
de gen</w>
for m
g r
joǵ ary</w>
ı s
r </w>
qaý ip
jum ys</w>
o k
jat yr</w>
s y</w>
j aq
sat yp</w>
qoǵ am
t ab
te di</w>
eken in</w>
ul y</w>
yr ǵ
g iniń</w>
im di</w>
ol og
en giz
ý i</w>
j an
áleý me
ó ń
áleýme ttik</w>
bol yp</w>
tur ǵ
ó tken</w>
ý sh
el der
son ymen</w>
ke ıin</w>
bol ady</w>
p ı
ý t
q ym
ek i</w>
yl ady</w>
p r
bel g
uı ym
j aý
tór aǵ
ys ynda</w>
óz bek
júr giz
keń es
ar t</w>
q yt
t am
ish inde</w>
qol d
yr ý</w>
saý da</w>
agen tti
j om
kú n
n ar
e m
qor ǵ
jom art</w>
kom p
sh isi</w>
d alan
qas ym</w>
alǵ ash
l yq</w>
tarı h
má denı
mádenı e
deń ge
qaje t</w>
baılan ysty</w>
d aǵy</w>
aı da</w>
iz diń</w>
tram p</w>
yn yn</w>
ke te
al ý</w>
óz ger
negiz gi</w>
te h
re tinde</w>
qat ys
d i
ás ker
t ym
qu q
g </w>
b il
ı ik</w>
bas qar
m yń</w>
kele di</w>
shyǵ ar
jar ıı
kez des
teń ge
be ı
n á
is ke</w>
habarl aıdy</w>
t á
kete ıik</w>
m inde
bur yn</w>
qaýip siz
deńge ı
kás ip
j al
arn alǵan</w>
t as
ar ǵa</w>
ıl lı
ý dy</w>
az </w>
ná tı
m ý
ob l
jyl dyń</w>
v e
so ń
il di</w>
t a</w>
j oq
tsı fr
aq yr
b iz</w>
o z
ú k
s óz
komp anıı
q yrǵ
yl ym
bas qa</w>
ó s
sh am
n iń</w>
p l
j ón
es ke</w>
paı yz
sh ilik</w>
m aq
saı ası</w>
s a</w>
m ı</w>
on y</w>
ú l
yǵ yn</w>
jal p
ar tt
b i</w>
paı dalan
kel gen</w>
je tkiz
r ı
qaz ir
res mı</w>
ar asyndaǵy</w>
k ir
e di</w>
ú ı
al t
m ıllı
ó l
ó tkiz
úk ime
ol ardyń</w>
ǵ ana</w>
aqpar at</w>
qar sy</w>
tá j
aıtý ynsha</w>
ó m
eýr op
óń ir
júı es
yn tymaqtast
q ý
o d
qal yp
parl amen
t u
joq </w>
aı asynda</w>
s yz</w>
j osparl
mu n
ar t
aı y</w>
ar al
der i</w>
ke ı
túr de</w>
úsh </w>
jalp y</w>
tóraǵ asy</w>
kó p</w>
aın al
j i
mınıstr li
doll ar</w>
á k
tsıfr lyq</w>
bol ǵan</w>
jyl ǵy</w>
r d</w>
t aý
il gen</w>
ı r
ml rd</w>
qabyl d
qur am
sá ıkes</w>
b aqyl
qazir gi</w>
ý m
u z
bir i</w>
á z
ate g
qyrǵ yz
el diń</w>
yn y</w>
j ı
baǵ darl
ber ý</w>
d á
kelis im
bol atyn</w>
re t</w>
g inde</w>
b an
t aǵy</w>
bol m
bir aq</w>
str ateg
n aqty</w>
in gi</w>
k i</w>
baǵdarl am
tar ap
respýblık asy</w>
ek inshi</w>
ch em
chem pı
ók il
f ın
gren l
múmk indik</w>
bu dan</w>
málim dedi</w>
mer z
ir i</w>
ik ti</w>
ar dy</w>
alǵash qy</w>
g ine</w>
ý n
yq qa</w>
mınıstr i</w>
mádenıe t</w>
syr t
kez inde</w>
jaý ap
b yl
ek sp
y b
teh n
ó te</w>
al yn
ol ar</w>
ekonom ık
kó p
q ys
d on
b i
oq ı
yl yp</w>
yq p
sh aqyr
tehn olog
don ald</w>
jú ze
júze ge</w>
ter i</w>
h an
z </w>
os yǵan</w>
tur aqty</w>
fr an
at ynyń</w>
ml n</w>
syrt qy</w>
v ol
qoǵam dyq</w>
erek she</w>
f ıl
re form
teńge den</w>
te tin</w>
or yn
de p
kún i</w>
a j
ıt se</w>
túr li</w>
ǵ an
ǵ al
ese p
alm aty</w>
ir an</w>
habarl ady</w>
bar ysynda</w>
ý di</w>
sar ap
n yǵ
m ar
al aıda</w>
qor yt
v ıtse</w>
or g
aı yr
bı yl</w>
k i
kom ıs
ys yn</w>
s aǵ
basp asóz</w>
nı e
m am
ar asynda</w>
j ap
n az
aý qym
tap syr
uıym d
o ń
artt yr
álem dik</w>
áz ir
qar j
se be
tı is</w>
quryl t
agentti giniń</w>
s ur
bas shyl
jyl ǵa</w>
bir inshi</w>
baǵ yttalǵan</w>
qam tam
qamtam asyz</w>
k l
ózbek stan</w>
arn aıy</w>
sh y</w>
tel lek
qaýipsiz dik</w>
ý yna</w>
aý dar
tarıh ı</w>
al yp</w>
e dik</w>
dam ytý</w>
jón indegi</w>
at ynyn</w>
ın tellek
s ý</w>
kásip ker
z am
qyt aı</w>
she tel
d ú
elim izdiń</w>
at qar
ar a</w>
dep ýt
qorǵ aý</w>
ó r
n ur
óm ir
beı bi
kon stıtýtsııalyq</w>
tram p
tin she</w>
orn al
in she</w>
qold aý</w>
bir neshe</w>
qyzme ti</w>
yst yq</w>
qyl m
m yń
sond yqtan</w>
ter di</w>
qoryt ynd
strateg ııalyq</w>
soń ǵy</w>
mý ze
qyzme t</w>
r ás
m ól
or d
málime tinshe</w>
ber di</w>
t ań
jyl dan</w>
eń bek</w>
de ı
ym yz
d aý
mól sher
pl om
ys qa</w>
bı z
vol on
men sh
til shisi</w>
av t
keńes iniń</w>
qar astyr
sh ili
b at
a f
ov a</w>
ener ge
im i</w>
jaz ǵan</w>
á ı
ú z
shesh im</w>
att yq</w>
q oz
yǵ ynda</w>
úl ken</w>
b az
beıbi t
sh aǵ
aýqym dy</w>
qań tar
zer tte
bir qatar</w>
bil dir
bir les
aı q
qal asynda</w>
s ó
d r
i ń
m a</w>
o f
jaǵ daı</w>
respýblık asynyń</w>
e v</w>
tal qyl
ı e</w>
mek te
k r
jaǵ daı
s yn
aıt yn</w>
tr an
nátı jes
tin in</w>
jat qan</w>
t on
te atr
ar dan</w>
aı ynda</w>
q ı
yǵ yna</w>
mensh ikti</w>
v ı
an ǵan</w>
byl t
t aǵ
beıbit shilik</w>
chempı on
jaýap ker
aq p
es ker
bir ge</w>
kólem i</w>
qarj y</w>
kú r
sal a</w>
qar aı</w>
k ı
t h
yqt yq</w>
q r</w>
e ger</w>
tas ym
im der
shar ý
im iz</w>
ı ý
ǵ yr
u </w>
jer g
jerg ilikti</w>
shek te
as qan</w>
qos ym
s ap
kórse tkish
bol ýy</w>
b ár
kl ýb
kom and
volon ter
belg ili</w>
y dan</w>
elim iz
ar m
qar am
kel tir
tramp tyń</w>
at yndaǵy</w>
kez de</w>
ber i</w>
keń e
al aý</w>
e tedi</w>
ki tap
ser ik
grenl andıı
kom ıte
e tti</w>
saı yn</w>
qat yn
shab ý
aı dyń</w>
am y</w>
az a</w>
m aterı
n a</w>
qorytynd ysy</w>
dam ytýǵa</w>
táý el
óz ara</w>
eýr o</w>
er ik
gen in</w>
yr m
ý dyń</w>
uıymd astyr
tor y</w>
qosym sha</w>
tehnolog ıı
dı plom
qyrǵyz stan</w>
s aqtaý</w>
bú gin</w>
s am
q on
tık a</w>
p ikir
m onıtorın
alǵash </w>
mınıstrli gi</w>
paıyz ǵa</w>
qyzme tker
re ıtın
jel toq
ym y</w>
b aev</w>
qyz yl
zam an
ar yn</w>
y ı
aral yǵynda</w>
de ý</w>
mıllı ard</w>
qu n
ter ge</w>
